TRT-8601-EntropyCalibration2
images: 3c010a14
/model.0/conv/Conv_output_0: 3e35d689
/model.0/act/Sigmoid_output_0: 3c010a14
/model.0/act/Mul_output_0: 3e150e54
/model.1/Transpose_output_0: 3e150e54
/model.1/Reshape_output_0: 3e150e54
(Unnamed Layer* 21) [Constant]_output: 3c50ce8f
(Unnamed Layer* 22) [Shuffle]_output: 3c50ce8f
/model.1/channel_attention/channel_attention.0/MatMul_output_0: 3e2c27e8
(Unnamed Layer* 24) [Constant]_output: 3ca69783
(Unnamed Layer* 25) [Shuffle]_output: 3ca69783
/model.1/channel_attention/channel_attention.0/Add_output_0: 3dbd63df
/model.1/channel_attention/channel_attention.1/Relu_output_0: 3d9093cb
(Unnamed Layer* 28) [Constant]_output: 3b90237d
(Unnamed Layer* 29) [Shuffle]_output: 3b90237d
/model.1/channel_attention/channel_attention.2/MatMul_output_0: 3d415196
(Unnamed Layer* 31) [Constant]_output: 3c20cb8f
(Unnamed Layer* 32) [Shuffle]_output: 3c20cb8f
/model.1/channel_attention/channel_attention.2/Add_output_0: 3d1f8c9a
/model.1/Reshape_1_output_0: 3d1f8c9a
/model.1/Transpose_1_output_0: 3d1f8c9a
/model.1/Sigmoid_output_0: 3c022d3d
/model.1/Mul_output_0: 3d556158
/model.1/spatial_attention/spatial_attention.0/Conv_output_0: 3e15ec08
/model.1/spatial_attention/spatial_attention.2/Relu_output_0: 3da6baa4
/model.1/spatial_attention/spatial_attention.3/Conv_output_0: 3d90b544
/model.1/Sigmoid_1_output_0: 3c01121c
/model.1/Mul_1_output_0: 3c423249
/model.2/conv/Conv_output_0: 3d840491
/model.2/act/Sigmoid_output_0: 3c00f9f4
/model.2/act/Mul_output_0: 3d48a971
/model.3/cv0/conv/Conv_output_0: 3dfc0e1a
/model.3/cv0/act/Sigmoid_output_0: 3c010a14
/model.3/cv0/act/Mul_output_0: 3d2a0494
/model.3/cv1/conv/Conv_output_0: 3d778a2f
/model.3/cv1/act/Sigmoid_output_0: 3c0213dd
/model.3/cv1/act/Mul_output_0: 3d02317d
/model.3/m.0/cv1/conv/Conv_output_0: 3dc9d682
/model.3/m.0/cv1/act/Sigmoid_output_0: 3c011223
/model.3/m.0/cv1/act/Mul_output_0: 3cf1382c
/model.3/m.0/cv2/conv/Conv_output_0: 3e022676
/model.3/m.0/cv2/act/Sigmoid_output_0: 3c010a14
/model.3/m.0/cv2/act/Mul_output_0: 3d495ea2
/model.3/m.0/Add_output_0: 3da5ccf5
/model.3/Concat_output_0: 3d25fd5b
/model.3/cv2/conv/Conv_output_0: 3dced704
/model.3/cv2/act/Sigmoid_output_0: 3c010a14
/model.3/cv2/act/Mul_output_0: 3d10ea91
/model.4/conv/Conv_output_0: 3dd7eb8c
/model.4/act/Sigmoid_output_0: 3c010a14
/model.4/act/Mul_output_0: 3d733488
/model.5/cv0/conv/Conv_output_0: 3cbaeec9
/model.5/cv0/act/Sigmoid_output_0: 3ba72e2c
/model.5/cv0/act/Mul_output_0: 3c58db49
/model.5/cv1/conv/Conv_output_0: 3d26c019
/model.5/cv1/act/Sigmoid_output_0: 3c03f7ee
/model.5/cv1/act/Mul_output_0: 3d2a2dac
/model.5/m.0/cv1/conv/Conv_output_0: 3e02742b
/model.5/m.0/cv1/act/Sigmoid_output_0: 3c010a14
/model.5/m.0/cv1/act/Mul_output_0: 3d265bff
/model.5/m.0/cv2/conv/Conv_output_0: 3dfbde32
/model.5/m.0/cv2/act/Sigmoid_output_0: 3c0070b5
/model.5/m.0/cv2/act/Mul_output_0: 3d2730c5
/model.5/m.0/Add_output_0: 3d6ab834
/model.5/m.1/cv1/conv/Conv_output_0: 3d154eb3
/model.5/m.1/cv1/act/Sigmoid_output_0: 3c0354b6
/model.5/m.1/cv1/act/Mul_output_0: 3d23a5c8
/model.5/m.1/cv2/conv/Conv_output_0: 3b7fe62a
/model.5/m.1/cv2/act/Sigmoid_output_0: 3aa257a3
/model.5/m.1/cv2/act/Mul_output_0: 3b156b28
/model.5/m.1/Add_output_0: 3d5e45eb
/model.5/Concat_output_0: 3cd9f9f8
/model.5/cv2/conv/Conv_output_0: 3d9f1275
/model.5/cv2/act/Sigmoid_output_0: 3c010a14
/model.5/cv2/act/Mul_output_0: 3d28c137
/model.6/conv/Conv_output_0: 3e4d6079
/model.6/act/Sigmoid_output_0: 3c010a14
/model.6/act/Mul_output_0: 3e1bf336
/model.7/cv0/conv/Conv_output_0: 3c625801
/model.7/cv0/act/Sigmoid_output_0: 3b9488fd
/model.7/cv0/act/Mul_output_0: 3c5d67a6
/model.7/cv1/conv/Conv_output_0: 3e1e0ac2
/model.7/cv1/act/Sigmoid_output_0: 3c010a14
/model.7/cv1/act/Mul_output_0: 3e15da30
/model.7/m.0/cv1/conv/Conv_output_0: 3dfbd55b
/model.7/m.0/cv1/act/Sigmoid_output_0: 3c010a14
/model.7/m.0/cv1/act/Mul_output_0: 3dc5d798
/model.7/m.0/cv2/conv/Conv_output_0: 3d00ea00
/model.7/m.0/cv2/act/Sigmoid_output_0: 3ade3c6d
/model.7/m.0/cv2/act/Mul_output_0: 3d42cc66
/model.7/m.0/Add_output_0: 3e3bdb65
/model.7/m.1/cv1/conv/Conv_output_0: 3c8f4771
/model.7/m.1/cv1/act/Sigmoid_output_0: 3be478df
/model.7/m.1/cv1/act/Mul_output_0: 3c5e84ef
/model.7/m.1/cv2/conv/Conv_output_0: 3c5d4849
/model.7/m.1/cv2/act/Sigmoid_output_0: 3bbaf2a1
/model.7/m.1/cv2/act/Mul_output_0: 3b86b44c
/model.7/m.1/Add_output_0: 3e455281
/model.7/Concat_output_0: 3dc229e9
/model.7/cv2/conv/Conv_output_0: 3cca109f
/model.7/cv2/act/Sigmoid_output_0: 3b81a345
/model.7/cv2/act/Mul_output_0: 3d6f2f11
/model.8/Transpose_output_0: 3d6f2f11
/model.8/Reshape_output_0: 3d6f2f11
(Unnamed Layer* 140) [Constant]_output: 38fd5f9f
(Unnamed Layer* 141) [Shuffle]_output: 38fd5f9f
/model.8/channel_attention/channel_attention.0/MatMul_output_0: 3ba2304a
(Unnamed Layer* 143) [Constant]_output: 3d012a57
(Unnamed Layer* 144) [Shuffle]_output: 3d012a57
/model.8/channel_attention/channel_attention.0/Add_output_0: 3c02d558
/model.8/channel_attention/channel_attention.1/Relu_output_0: 3d1f0d05
(Unnamed Layer* 147) [Constant]_output: 3a4700da
(Unnamed Layer* 148) [Shuffle]_output: 3a4700da
/model.8/channel_attention/channel_attention.2/MatMul_output_0: 3c6b74f2
(Unnamed Layer* 150) [Constant]_output: 3d102943
(Unnamed Layer* 151) [Shuffle]_output: 3d102943
/model.8/channel_attention/channel_attention.2/Add_output_0: 3cdb4ca0
/model.8/Reshape_1_output_0: 3cdb4ca0
/model.8/Transpose_1_output_0: 3cdb4ca0
/model.8/Sigmoid_output_0: 3bfdf9e6
/model.8/Mul_output_0: 3d576cb7
/model.8/spatial_attention/spatial_attention.0/Conv_output_0: 3c54a7ca
/model.8/spatial_attention/spatial_attention.2/Relu_output_0: 3da16dd5
/model.8/spatial_attention/spatial_attention.3/Conv_output_0: 3c568c86
/model.8/Sigmoid_1_output_0: 3bc2be4b
/model.8/Mul_1_output_0: 3d85de91
/model.9/cv1/conv/Conv_output_0: 3e700016
/model.9/cv1/act/Sigmoid_output_0: 3c010a14
/model.9/cv1/act/Mul_output_0: 3e1cce3f
/model.9/cv3/conv/Conv_output_0: 3e33abcf
/model.9/cv3/act/Sigmoid_output_0: 3c010a14
/model.9/cv3/act/Mul_output_0: 3e1463f1
/model.9/cv4/conv/Conv_output_0: 3dd2aa37
/model.9/cv4/act/Sigmoid_output_0: 3c011220
/model.9/cv4/act/Mul_output_0: 3dc51d01
/model.9/m/MaxPool_output_0: 3dc51d01
/model.9/m_1/MaxPool_output_0: 3dc51d01
/model.9/m_2/MaxPool_output_0: 3dc51d01
/model.9/Concat_output_0: 3e107fde
/model.9/cv5/conv/Conv_output_0: 3e0e2307
/model.9/cv5/act/Sigmoid_output_0: 3c010a14
/model.9/cv5/act/Mul_output_0: 3e106a52
/model.9/cv6/conv/Conv_output_0: 3da96a9e
/model.9/cv6/act/Sigmoid_output_0: 3c0ac28c
/model.9/cv6/act/Mul_output_0: 3d6a7d1c
/model.9/cv2/conv/Conv_output_0: 3d84d889
/model.9/cv2/act/Sigmoid_output_0: 3c011221
/model.9/cv2/act/Mul_output_0: 3d407214
/model.9/Concat_1_output_0: 3d46fa23
/model.9/cv7/conv/Conv_output_0: 3d9230c9
/model.9/cv7/act/Sigmoid_output_0: 3c00cc62
/model.9/cv7/act/Mul_output_0: 3d41d5c2
/model.10/Resize_output_0: 3d41d5c2
/model.11/Concat_output_0: 3d733488
/model.12/cv0/conv/Conv_output_0: 3d9cd2b2
/model.12/cv0/act/Sigmoid_output_0: 3c00cbd5
/model.12/cv0/act/Mul_output_0: 3d28f2b7
/model.12/cv1/conv/Conv_output_0: 3d9b53b7
/model.12/cv1/act/Sigmoid_output_0: 3c00b159
/model.12/cv1/act/Mul_output_0: 3d10bf63
/model.12/m.0/cv1/conv/Conv_output_0: 3dc0bbd6
/model.12/m.0/cv1/act/Sigmoid_output_0: 3c011212
/model.12/m.0/cv1/act/Mul_output_0: 3cc0bc01
/model.12/m.0/cv2/conv/Conv_output_0: 3db83718
/model.12/m.0/cv2/act/Sigmoid_output_0: 3c00f1dc
/model.12/m.0/cv2/act/Mul_output_0: 3d42f10d
/model.12/Concat_output_0: 3d1242b2
/model.12/cv2/conv/Conv_output_0: 3d832af8
/model.12/cv2/act/Sigmoid_output_0: 3c00b0a2
/model.12/cv2/act/Mul_output_0: 3d25f4a0
/model.13/Resize_output_0: 3d25f4a0
/model.14/Concat_output_0: 3d48a971
/model.15/cv0/conv/Conv_output_0: 3d48a369
/model.15/cv0/act/Sigmoid_output_0: 3c00aa34
/model.15/cv0/act/Mul_output_0: 3d8db79b
/model.15/cv1/conv/Conv_output_0: 3d292fb5
/model.15/cv1/act/Sigmoid_output_0: 3c008b1c
/model.15/cv1/act/Mul_output_0: 3d2857c3
/model.15/m.0/cv1/conv/Conv_output_0: 3c8bd4fb
/model.15/m.0/cv1/act/Sigmoid_output_0: 3c00689e
/model.15/m.0/cv1/act/Mul_output_0: 3c85bd70
/model.15/m.0/cv2/conv/Conv_output_0: 3c46865d
/model.15/m.0/cv2/act/Sigmoid_output_0: 3bdcdb0c
/model.15/m.0/cv2/act/Mul_output_0: 3c0ec343
/model.15/Concat_output_0: 3d1081b4
/model.15/cv2/conv/Conv_output_0: 3d2d83cd
/model.15/cv2/act/Sigmoid_output_0: 3ae531f3
/model.15/cv2/act/Mul_output_0: 3d259bbd
/model.16/conv/Conv_output_0: 3d34fc95
/model.16/act/Sigmoid_output_0: 3c01bec6
/model.16/act/Mul_output_0: 3d412bc1
/model.17/Concat_output_0: 3d4a7035
/model.18/cv0/conv/Conv_output_0: 3d24d95c
/model.18/cv0/act/Sigmoid_output_0: 3bff9a28
/model.18/cv0/act/Mul_output_0: 3d258918
/model.18/cv1/conv/Conv_output_0: 3d309da2
/model.18/cv1/act/Sigmoid_output_0: 3bfed83d
/model.18/cv1/act/Mul_output_0: 3d438463
/model.18/m.0/cv1/conv/Conv_output_0: 3c92eefa
/model.18/m.0/cv1/act/Sigmoid_output_0: 3bea1296
/model.18/m.0/cv1/act/Mul_output_0: 3c854415
/model.18/m.0/cv2/conv/Conv_output_0: 3c9eabbc
/model.18/m.0/cv2/act/Sigmoid_output_0: 3bedc08e
/model.18/m.0/cv2/act/Mul_output_0: 3c922c7c
/model.18/Concat_output_0: 3d05be68
/model.18/cv2/conv/Conv_output_0: 3d012a48
/model.18/cv2/act/Sigmoid_output_0: 3aac5b92
/model.18/cv2/act/Mul_output_0: 3cfa2d04
/model.19/conv/Conv_output_0: 3d2b46e9
/model.19/act/Sigmoid_output_0: 3c0a0998
/model.19/act/Mul_output_0: 3d299067
/model.20/Concat_output_0: 3d42960c
/model.22/cv2.0/cv2.0.0/conv/Conv_output_0: 3d8ccf71
/model.22/cv2.0/cv2.0.0/act/Sigmoid_output_0: 3c00f1d5
/model.22/cv2.0/cv2.0.0/act/Mul_output_0: 3d021731
/model.22/cv2.0/cv2.0.1/conv/Conv_output_0: 3db926d1
/model.22/cv2.0/cv2.0.1/act/Sigmoid_output_0: 3c010a14
/model.22/cv2.0/cv2.0.1/act/Mul_output_0: 3d933b11
/model.22/cv2.0/cv2.0.2/Conv_output_0: 3de08d95
/model.22/cv3.0/cv3.0.0/conv/Conv_output_0: 3deac4db
/model.22/cv3.0/cv3.0.0/act/Sigmoid_output_0: 3c01120d
/model.22/cv3.0/cv3.0.0/act/Mul_output_0: 3cc56f30
/model.22/cv3.0/cv3.0.1/conv/Conv_output_0: 3e982ed1
/model.22/cv3.0/cv3.0.1/act/Sigmoid_output_0: 3c010a14
/model.22/cv3.0/cv3.0.1/act/Mul_output_0: 3e9e6a4a
/model.22/cv3.0/cv3.0.2/Conv_output_0: 3f1886a9
/model.22/Concat_output_0: 3ee9466d
/model.22/cv2.1/cv2.1.0/conv/Conv_output_0: 3d236358
/model.22/cv2.1/cv2.1.0/act/Sigmoid_output_0: 3c005ef0
/model.22/cv2.1/cv2.1.0/act/Mul_output_0: 3d0eb955
/model.22/cv2.1/cv2.1.1/conv/Conv_output_0: 3d096590
/model.22/cv2.1/cv2.1.1/act/Sigmoid_output_0: 3c1a2006
/model.22/cv2.1/cv2.1.1/act/Mul_output_0: 3c99a536
/model.22/cv2.1/cv2.1.2/Conv_output_0: 3cd70c77
/model.22/cv3.1/cv3.1.0/conv/Conv_output_0: 3e166587
/model.22/cv3.1/cv3.1.0/act/Sigmoid_output_0: 3c010a14
/model.22/cv3.1/cv3.1.0/act/Mul_output_0: 3e079a7e
/model.22/cv3.1/cv3.1.1/conv/Conv_output_0: 3dc077e8
/model.22/cv3.1/cv3.1.1/act/Sigmoid_output_0: 3c073e71
/model.22/cv3.1/cv3.1.1/act/Mul_output_0: 3d2bacd8
/model.22/cv3.1/cv3.1.2/Conv_output_0: 3e201460
/model.22/Concat_1_output_0: 3e2b1628
/model.22/cv2.2/cv2.2.0/conv/Conv_output_0: 3d0106cf
/model.22/cv2.2/cv2.2.0/act/Sigmoid_output_0: 3bfdb51f
/model.22/cv2.2/cv2.2.0/act/Mul_output_0: 3ccd8664
/model.22/cv2.2/cv2.2.1/conv/Conv_output_0: 3c8599d7
/model.22/cv2.2/cv2.2.1/act/Sigmoid_output_0: 3a8025ed
/model.22/cv2.2/cv2.2.1/act/Mul_output_0: 3b1060f7
/model.22/cv2.2/cv2.2.2/Conv_output_0: 3d064ba4
/model.22/cv3.2/cv3.2.0/conv/Conv_output_0: 3d795bff
/model.22/cv3.2/cv3.2.0/act/Sigmoid_output_0: 3c00ab86
/model.22/cv3.2/cv3.2.0/act/Mul_output_0: 3d45246c
/model.22/cv3.2/cv3.2.1/conv/Conv_output_0: 3d0141af
/model.22/cv3.2/cv3.2.1/act/Sigmoid_output_0: 3c01802f
/model.22/cv3.2/cv3.2.1/act/Mul_output_0: 3d011f58
/model.22/cv3.2/cv3.2.2/Conv_output_0: 3e0f5058
/model.22/Concat_2_output_0: 3e0f5058
/model.22/Reshape_output_0: 3ee9466d
/model.22/Reshape_1_output_0: 3e2b1628
/model.22/Reshape_2_output_0: 3e0f5058
/model.22/Concat_6_output_0: 3ec7c779
/model.22/Range_output_0: 3fa04a85
(Unnamed Layer* 334) [Shuffle]_output: 3c010a14
(Unnamed Layer* 336) [Shuffle]_output: 3b810a14
/model.22/Add_output_0: 3fa0cb8f
/model.22/Range_1_output_0: 3fa04a85
(Unnamed Layer* 349) [Shuffle]_output: 3c010a14
(Unnamed Layer* 351) [Shuffle]_output: 3b810a14
/model.22/Add_1_output_0: 3fa0cb8f
/model.22/Reshape_5_output_0: 3fa0cb8f
/model.22/Expand_output_0: 3fa0cb8f
/model.22/Reshape_6_output_0: 3fa0cb8f
/model.22/Expand_1_output_0: 3fa0cb8f
/model.22/Unsqueeze_3_output_0: 3fa0cb8f
/model.22/Unsqueeze_4_output_0: 3fa0cb8f
/model.22/Concat_10_output_0: 3fa0cb8f
/model.22/Reshape_7_output_0: 3fa0cb8f
(Unnamed Layer* 402) [Constant]_output: 3d010a14
(Unnamed Layer* 403) [Shuffle]_output: 3d010a14
/model.22/ConstantOfShape_output_0: 3d010a14
/model.22/Range_2_output_0: 3f1f4871
(Unnamed Layer* 422) [Shuffle]_output: 3c010a14
(Unnamed Layer* 424) [Shuffle]_output: 3b810a14
/model.22/Add_2_output_0: 3f204a85
/model.22/Range_3_output_0: 3f1f4871
(Unnamed Layer* 437) [Shuffle]_output: 3c010a14
(Unnamed Layer* 439) [Shuffle]_output: 3b810a14
/model.22/Add_3_output_0: 3f204a85
/model.22/Reshape_10_output_0: 3f204a85
/model.22/Expand_2_output_0: 3f204a85
/model.22/Reshape_11_output_0: 3f204a85
/model.22/Expand_3_output_0: 3f204a85
/model.22/Unsqueeze_6_output_0: 3f204a85
/model.22/Unsqueeze_7_output_0: 3f204a85
/model.22/Concat_15_output_0: 3f204a85
/model.22/Reshape_12_output_0: 3f204a85
(Unnamed Layer* 490) [Constant]_output: 3d810a14
(Unnamed Layer* 491) [Shuffle]_output: 3d810a14
/model.22/ConstantOfShape_1_output_0: 3d810a14
/model.22/Range_4_output_0: 3e9d4449
(Unnamed Layer* 510) [Shuffle]_output: 3c010a14
(Unnamed Layer* 512) [Shuffle]_output: 3b810a14
/model.22/Add_4_output_0: 3e9f4871
/model.22/Range_5_output_0: 3e9d4449
(Unnamed Layer* 525) [Shuffle]_output: 3c010a14
(Unnamed Layer* 527) [Shuffle]_output: 3b810a14
/model.22/Add_5_output_0: 3e9f4871
/model.22/Reshape_15_output_0: 3e9f4871
/model.22/Expand_4_output_0: 3e9f4871
/model.22/Reshape_16_output_0: 3e9f4871
/model.22/Expand_5_output_0: 3e9f4871
/model.22/Unsqueeze_9_output_0: 3e9f4871
/model.22/Unsqueeze_10_output_0: 3e9f4871
/model.22/Concat_20_output_0: 3e9f4871
/model.22/Reshape_17_output_0: 3e9f4871
(Unnamed Layer* 578) [Constant]_output: 3e010a14
(Unnamed Layer* 579) [Shuffle]_output: 3e010a14
/model.22/ConstantOfShape_2_output_0: 3e010a14
/model.22/Concat_22_output_0: 3fa0cb8f
/model.22/Concat_23_output_0: 3e010a14
/model.22/Transpose_output_0: 3fa0cb8f
/model.22/Transpose_1_output_0: 3e010a14
/model.22/Split_output_0: 3dd96a1f
/model.22/Split_output_1: 3ec7c779
/model.22/dfl/Reshape_output_0: 3dd96a1f
/model.22/dfl/Transpose_output_0: 3dd96a1f
(Unnamed Layer* 608) [Softmax]_output: 3bdfa55f
/model.22/dfl/conv/Conv_output_0: 3dc64e27
/model.22/dfl/Reshape_1_output_0: 3dc64e27
/model.22/Unsqueeze_12_output_0: 3fa0cb8f
/model.22/Slice_output_0: 3d1b9bdf
/model.22/Slice_1_output_0: 3d1384b7
/model.22/Sub_output_0: 3faccd70
/model.22/Add_7_output_0: 3fb24183
/model.22/Add_8_output_0: 402bc320
(Unnamed Layer* 691) [Shuffle]_output: 3c810a14
/model.22/Div_1_output_0: 3fabc320
/model.22/Sub_1_output_0: 3d8bb980
/model.22/Concat_24_output_0: 3fb05253
(Unnamed Layer* 698) [Shuffle]_output: 3e010a14
/model.22/Mul_5_output_0: 409f2f46
/model.22/Sigmoid_output_0: 3bfbf096
output0: 409f2f46
